TRT-100900-EntropyCalibration2
images: 3c008912
/model.0/conv/Conv_output_0: 3df308f0
/model.0/act/Sigmoid_output_0: 3c010a14
/model.0/act/Mul_output_0: 3db5f664
/model.1/conv/Conv_output_0: 3f02c366
/model.1/act/Sigmoid_output_0: 3c010a14
/model.1/act/Mul_output_0: 3e2bd95d
/model.2/cv1/conv/Conv_output_0: 3e21c6a0
/model.2/cv1/act/Sigmoid_output_0: 3c010a14
/model.2/cv1/act/Mul_output_0: 3de77cb4
/model.2/Split_output_0: 3da0ca77
/model.2/Split_output_1: 3dad0755
/model.2/m.0/cv1/conv/Conv_output_0: 3d004e17
/model.2/m.0/cv1/act/Sigmoid_output_0: 3be793ed
/model.2/m.0/cv1/act/Mul_output_0: 3c148fbc
/model.2/m.0/cv2/conv/Conv_output_0: 3dbbf50f
/model.2/m.0/cv2/act/Sigmoid_output_0: 3c010a14
/model.2/m.0/cv2/act/Mul_output_0: 3dcd4425
/model.2/m.0/Add_output_0: 3e1c085e
/model.2/Concat_output_0: 3dd1123d
/model.2/cv2/conv/Conv_output_0: 3e5a9989
/model.2/cv2/act/Sigmoid_output_0: 3c010a14
/model.2/cv2/act/Mul_output_0: 3d945e7c
/model.3/conv/Conv_output_0: 3d4e4d13
/model.3/act/Sigmoid_output_0: 3c01b365
/model.3/act/Mul_output_0: 3d12b40c
/model.4/cv1/conv/Conv_output_0: 3d105579
/model.4/cv1/act/Sigmoid_output_0: 3bfe1fb1
/model.4/cv1/act/Mul_output_0: 3cc09f2c
/model.4/Split_output_0: 3c9a0105
/model.4/Split_output_1: 3c9937a4
/model.4/m.0/cv1/conv/Conv_output_0: 3cbe448e
/model.4/m.0/cv1/act/Sigmoid_output_0: 3bf54d14
/model.4/m.0/cv1/act/Mul_output_0: 3ca4170e
/model.4/m.0/cv2/conv/Conv_output_0: 3d3baadd
/model.4/m.0/cv2/act/Sigmoid_output_0: 3c001ca0
/model.4/m.0/cv2/act/Mul_output_0: 3d2520b2
/model.4/m.0/Add_output_0: 3d2c5a95
/model.4/Concat_output_0: 3d3cfbc2
/model.4/cv2/conv/Conv_output_0: 3d542f94
/model.4/cv2/act/Sigmoid_output_0: 3bfee4f0
/model.4/cv2/act/Mul_output_0: 3c7fc254
/model.5/conv/Conv_output_0: 3d4f057a
/model.5/act/Sigmoid_output_0: 3bff7ce4
/model.5/act/Mul_output_0: 3ca79049
/model.6/cv1/conv/Conv_output_0: 3d931899
/model.6/cv1/act/Sigmoid_output_0: 3c0483c8
/model.6/cv1/act/Mul_output_0: 3ca4e29b
/model.6/Split_output_0: 3ca4e29b
/model.6/Split_output_1: 3cc17143
/model.6/m.0/cv1/conv/Conv_output_0: 3cf231e4
/model.6/m.0/cv2/conv/Conv_output_0: 3d680878
/model.6/m.0/cv1/act/Sigmoid_output_0: 3c02d038
/model.6/m.0/cv2/act/Sigmoid_output_0: 3c083d61
/model.6/m.0/cv1/act/Mul_output_0: 3ca57e34
/model.6/m.0/cv2/act/Mul_output_0: 3cd3b563
/model.6/m.0/m/m.0/cv1/conv/Conv_output_0: 3d2a0690
/model.6/m.0/m/m.0/cv1/act/Sigmoid_output_0: 3c01f003
/model.6/m.0/m/m.0/cv1/act/Mul_output_0: 3c7270dd
/model.6/m.0/m/m.0/cv2/conv/Conv_output_0: 3d302c24
/model.6/m.0/m/m.0/cv2/act/Sigmoid_output_0: 3c00ad0b
/model.6/m.0/m/m.0/cv2/act/Mul_output_0: 3cd00dd2
/model.6/m.0/m/m.0/Add_output_0: 3d2ec1f8
/model.6/m.0/m/m.1/cv1/conv/Conv_output_0: 3d3569f9
/model.6/m.0/m/m.1/cv1/act/Sigmoid_output_0: 3c09016b
/model.6/m.0/m/m.1/cv1/act/Mul_output_0: 3ca5aff1
/model.6/m.0/m/m.1/cv2/conv/Conv_output_0: 3d90b00c
/model.6/m.0/m/m.1/cv2/act/Sigmoid_output_0: 3c00e791
/model.6/m.0/m/m.1/cv2/act/Mul_output_0: 3d681d29
/model.6/m.0/m/m.1/Add_output_0: 3da20d89
/model.6/m.0/Concat_output_0: 3d68ff31
/model.6/m.0/cv3/conv/Conv_output_0: 3d88c779
/model.6/m.0/cv3/act/Sigmoid_output_0: 3c086de7
/model.6/m.0/cv3/act/Mul_output_0: 3d0119bb
/model.6/Concat_output_0: 3ce7ac93
/model.6/cv2/conv/Conv_output_0: 3d6b25c5
/model.6/cv2/act/Sigmoid_output_0: 3c00878a
/model.6/cv2/act/Mul_output_0: 3cd71fec
/model.7/conv/Conv_output_0: 3d7e78ab
/model.7/act/Sigmoid_output_0: 3c01af76
/model.7/act/Mul_output_0: 3cc29fb5
/model.8/cv1/conv/Conv_output_0: 3d980290
/model.8/cv1/act/Sigmoid_output_0: 3c00e78a
/model.8/cv1/act/Mul_output_0: 3d02c828
/model.8/Split_output_0: 3cd175d2
/model.8/Split_output_1: 3d025b6e
/model.8/m.0/cv1/conv/Conv_output_0: 3d837966
/model.8/m.0/cv2/conv/Conv_output_0: 3d92118f
/model.8/m.0/cv1/act/Sigmoid_output_0: 3c012a4c
/model.8/m.0/cv2/act/Sigmoid_output_0: 3c15dee2
/model.8/m.0/cv1/act/Mul_output_0: 3c9a909b
/model.8/m.0/cv2/act/Mul_output_0: 3d2549de
/model.8/m.0/m/m.0/cv1/conv/Conv_output_0: 3d99b536
/model.8/m.0/m/m.0/cv1/act/Sigmoid_output_0: 3c22f136
/model.8/m.0/m/m.0/cv1/act/Mul_output_0: 3d039ae8
/model.8/m.0/m/m.0/cv2/conv/Conv_output_0: 3da150d4
/model.8/m.0/m/m.0/cv2/act/Sigmoid_output_0: 3c020642
/model.8/m.0/m/m.0/cv2/act/Mul_output_0: 3d10a6e9
/model.8/m.0/m/m.0/Add_output_0: 3d8fc600
/model.8/m.0/m/m.1/cv1/conv/Conv_output_0: 3daacd1f
/model.8/m.0/m/m.1/cv1/act/Sigmoid_output_0: 3c02595f
/model.8/m.0/m/m.1/cv1/act/Mul_output_0: 3d039ac6
/model.8/m.0/m/m.1/cv2/conv/Conv_output_0: 3dd5d9f2
/model.8/m.0/m/m.1/cv2/act/Sigmoid_output_0: 3c00ec76
/model.8/m.0/m/m.1/cv2/act/Mul_output_0: 3d67880f
/model.8/m.0/m/m.1/Add_output_0: 3dd0db7e
/model.8/m.0/Concat_output_0: 3d65f80f
/model.8/m.0/cv3/conv/Conv_output_0: 3d9809a4
/model.8/m.0/cv3/act/Sigmoid_output_0: 3c00f2d6
/model.8/m.0/cv3/act/Mul_output_0: 3cd12bcd
/model.8/Concat_output_0: 3d02c262
/model.8/cv2/conv/Conv_output_0: 3d9ebf76
/model.8/cv2/act/Sigmoid_output_0: 3c00c6a2
/model.8/cv2/act/Mul_output_0: 3d0290a7
/model.9/cv1/conv/Conv_output_0: 3d542aad
/model.9/cv1/act/Sigmoid_output_0: 3c006932
/model.9/cv1/act/Mul_output_0: 3d528c2f
/model.9/m/MaxPool_output_0: 3d528c2f
/model.9/m_1/MaxPool_output_0: 3d528c2f
/model.9/m_2/MaxPool_output_0: 3d528c2f
/model.9/Concat_output_0: 3d737153
/model.9/cv2/conv/Conv_output_0: 3d913ef4
/model.9/cv2/act/Sigmoid_output_0: 3bffd519
/model.9/cv2/act/Mul_output_0: 3c91e9b3
/model.10/cv1/conv/Conv_output_0: 3da97b95
/model.10/cv1/act/Sigmoid_output_0: 3c00f0fb
/model.10/cv1/act/Mul_output_0: 3d122d1e
/model.10/Split_output_0: 3d122d1e
/model.10/Split_output_1: 3d29a3a2
/model.10/m/m.0/attn/qkv/conv/Conv_output_0: 3d862899
/model.10/m/m.0/attn/Reshape_output_0: 3d862899
/model.10/m/m.0/attn/Split_output_0: 3d14eb04
/model.10/m/m.0/attn/Split_output_1: 3d7e17cd
/model.10/m/m.0/attn/Split_output_2: 3d896962
/model.10/m/m.0/attn/Transpose_output_0: 3d14eb04
/model.10/m/m.0/attn/Reshape_2_output_0: 3d896962
/model.10/m/m.0/attn/MatMul_output_0: 3f2ce30f
/model.10/m/m.0/attn/pe/conv/Conv_output_0: 3d52d1df
/model.10/m/m.0/attn/Constant_1_output_0_output: 3ab67d3d
ONNXTRT_Broadcast_output: 3ab67d3d
/model.10/m/m.0/attn/Mul_output_0: 3df47fc3
/model.10/m/m.0/attn/Softmax_output: 3a8584ed
/model.10/m/m.0/attn/Softmax_output_0: 3a8584ed
/model.10/m/m.0/attn/Transpose_1_output_0: 3a8584ed
/model.10/m/m.0/attn/MatMul_1_output_0: 3d4c096a
/model.10/m/m.0/attn/Reshape_1_output_0: 3d4c096a
/model.10/m/m.0/attn/Add_output_0: 3d01b8b1
/model.10/m/m.0/attn/proj/conv/Conv_output_0: 3d41cf28
/model.10/m/m.0/Add_output_0: 3d9d5043
/model.10/m/m.0/ffn/ffn.0/conv/Conv_output_0: 3d79fc7b
/model.10/m/m.0/ffn/ffn.0/act/Sigmoid_output_0: 3bff11d6
/model.10/m/m.0/ffn/ffn.0/act/Mul_output_0: 3c815951
/model.10/m/m.0/ffn/ffn.1/conv/Conv_output_0: 3d5012a6
/model.10/m/m.0/Add_1_output_0: 3d912764
/model.10/Concat_output_0: 3d42d44a
/model.10/cv2/conv/Conv_output_0: 3da94ea3
/model.10/cv2/act/Sigmoid_output_0: 3c013f4e
/model.10/cv2/act/Mul_output_0: 3cc2dc6b
/model.11/Resize_output_0: 3cc2dc6b
/model.12/Concat_output_0: 3cd7cf97
/model.13/cv1/conv/Conv_output_0: 3d6e869b
/model.13/cv1/act/Sigmoid_output_0: 3c00972b
/model.13/cv1/act/Mul_output_0: 3cc4527c
/model.13/Split_output_0: 3cc4527c
/model.13/Split_output_1: 3c6753af
/model.13/m.0/cv1/conv/Conv_output_0: 3d2f2110
/model.13/m.0/cv1/act/Sigmoid_output_0: 3c00d4a9
/model.13/m.0/cv1/act/Mul_output_0: 3c919c59
/model.13/m.0/cv2/conv/Conv_output_0: 3d75df6a
/model.13/m.0/cv2/act/Sigmoid_output_0: 3c038b85
/model.13/m.0/cv2/act/Mul_output_0: 3ce6448b
/model.13/m.0/Add_output_0: 3d3c0613
/model.13/Concat_output_0: 3cd42716
/model.13/cv2/conv/Conv_output_0: 3d5f091a
/model.13/cv2/act/Sigmoid_output_0: 3bfed874
/model.13/cv2/act/Mul_output_0: 3c922d85
/model.14/Resize_output_0: 3c922d85
/model.15/Concat_output_0: 3c7fc254
/model.16/cv1/conv/Conv_output_0: 3d42671d
/model.16/cv1/act/Sigmoid_output_0: 3bf7ce26
/model.16/cv1/act/Mul_output_0: 3c90522e
/model.16/Split_output_0: 3c90522e
/model.16/Split_output_1: 3c7f72f6
/model.16/m.0/cv1/conv/Conv_output_0: 3d10dda7
/model.16/m.0/cv1/act/Sigmoid_output_0: 3bfe9e65
/model.16/m.0/cv1/act/Mul_output_0: 3cc1b3d5
/model.16/m.0/cv2/conv/Conv_output_0: 3d83c545
/model.16/m.0/cv2/act/Sigmoid_output_0: 3c006852
/model.16/m.0/cv2/act/Mul_output_0: 3cc007c5
/model.16/m.0/Add_output_0: 3d18c5d9
/model.16/Concat_output_0: 3cc08fe8
/model.16/cv2/conv/Conv_output_0: 3d5a1cd8
/model.16/cv2/act/Sigmoid_output_0: 3bfe1b2c
/model.16/cv2/act/Mul_output_0: 3c997ac1
/model.17/conv/Conv_output_0: 3d53c7d9
/model.23/cv2.0/cv2.0.0/conv/Conv_output_0: 3d9482b0
/model.23/cv3.0/cv3.0.0/cv3.0.0.0/conv/Conv_output_0: 3d4099d7
/model.17/act/Sigmoid_output_0: 3bff9253
/model.23/cv2.0/cv2.0.0/act/Sigmoid_output_0: 3bfed588
/model.23/cv3.0/cv3.0.0/cv3.0.0.0/act/Sigmoid_output_0: 3c01647f
/model.17/act/Mul_output_0: 3c88d623
/model.23/cv2.0/cv2.0.0/act/Mul_output_0: 3c921148
/model.23/cv3.0/cv3.0.0/cv3.0.0.0/act/Mul_output_0: 3d0f6338
/model.18/Concat_output_0: 3ca6054c
/model.23/cv2.0/cv2.0.1/conv/Conv_output_0: 3e66a6b7
/model.23/cv3.0/cv3.0.0/cv3.0.0.1/conv/Conv_output_0: 3d6003c6
/model.19/cv1/conv/Conv_output_0: 3d5b470a
/model.23/cv2.0/cv2.0.1/act/Sigmoid_output_0: 3c010a14
/model.23/cv3.0/cv3.0.0/cv3.0.0.1/act/Sigmoid_output_0: 3c010024
/model.19/cv1/act/Sigmoid_output_0: 3c004cbf
/model.23/cv2.0/cv2.0.1/act/Mul_output_0: 3e247529
/model.23/cv3.0/cv3.0.0/cv3.0.0.1/act/Mul_output_0: 3cb12ca8
/model.19/cv1/act/Mul_output_0: 3cb37553
/model.23/cv2.0/cv2.0.2/Conv_output_0: 3e0a1b7e
/model.23/cv3.0/cv3.0.1/cv3.0.1.0/conv/Conv_output_0: 3d512249
/model.19/Split_output_0: 3cb37553
/model.19/Split_output_1: 3c4865dd
/model.23/Reshape_output_0: 3e0a1b7e
/model.23/cv3.0/cv3.0.1/cv3.0.1.0/act/Sigmoid_output_0: 3c01985c
/model.19/m.0/cv1/conv/Conv_output_0: 3d6dca2e
/model.23/cv3.0/cv3.0.1/cv3.0.1.0/act/Mul_output_0: 3d11a998
/model.19/m.0/cv1/act/Sigmoid_output_0: 3c00ca54
/model.23/cv3.0/cv3.0.1/cv3.0.1.1/conv/Conv_output_0: 3e4b597f
/model.19/m.0/cv1/act/Mul_output_0: 3cb23435
/model.23/cv3.0/cv3.0.1/cv3.0.1.1/act/Sigmoid_output_0: 3c010a14
/model.19/m.0/cv2/conv/Conv_output_0: 3dae0c3a
/model.23/cv3.0/cv3.0.1/cv3.0.1.1/act/Mul_output_0: 3e1d2086
/model.19/m.0/cv2/act/Sigmoid_output_0: 3c041563
/model.23/cv3.0/cv3.0.2/Conv_output_0: 3e47e5a6
/model.19/m.0/cv2/act/Mul_output_0: 3d0ffb59
/model.23/Reshape_3_output_0: 3e47e5a6
/model.19/m.0/Add_output_0: 3d8f8679
/model.19/Concat_output_0: 3ce5d79e
/model.19/cv2/conv/Conv_output_0: 3d8bbffa
/model.19/cv2/act/Sigmoid_output_0: 3c004475
/model.19/cv2/act/Mul_output_0: 3cebf497
/model.20/conv/Conv_output_0: 3d8873ec
/model.23/cv2.1/cv2.1.0/conv/Conv_output_0: 3dee7aff
/model.23/cv3.1/cv3.1.0/cv3.1.0.0/conv/Conv_output_0: 3d882120
/model.20/act/Sigmoid_output_0: 3c00dbf5
/model.23/cv2.1/cv2.1.0/act/Sigmoid_output_0: 3c00e17b
/model.23/cv3.1/cv3.1.0/cv3.1.0.0/act/Sigmoid_output_0: 3c016705
/model.20/act/Mul_output_0: 3cd44d91
/model.23/cv2.1/cv2.1.0/act/Mul_output_0: 3ce8fceb
/model.23/cv3.1/cv3.1.0/cv3.1.0.0/act/Mul_output_0: 3d3df40e
/model.21/Concat_output_0: 3ca6b370
/model.23/cv2.1/cv2.1.1/conv/Conv_output_0: 3e6c4900
/model.23/cv3.1/cv3.1.0/cv3.1.0.1/conv/Conv_output_0: 3d9ba911
/model.22/cv1/conv/Conv_output_0: 3d8ee249
/model.23/cv2.1/cv2.1.1/act/Sigmoid_output_0: 3c010a14
/model.23/cv3.1/cv3.1.0/cv3.1.0.1/act/Sigmoid_output_0: 3c0106a6
/model.22/cv1/act/Sigmoid_output_0: 3c00e31a
/model.23/cv2.1/cv2.1.1/act/Mul_output_0: 3dc5a6e2
/model.23/cv3.1/cv3.1.0/cv3.1.0.1/act/Mul_output_0: 3d135056
/model.22/cv1/act/Mul_output_0: 3d03fba8
/model.23/cv2.1/cv2.1.2/Conv_output_0: 3de5f433
/model.23/cv3.1/cv3.1.1/cv3.1.1.0/conv/Conv_output_0: 3d378c1c
/model.22/Split_output_0: 3ceb730d
/model.22/Split_output_1: 3d03fba8
/model.23/Reshape_1_output_0: 3de5f433
/model.23/cv3.1/cv3.1.1/cv3.1.1.0/act/Sigmoid_output_0: 3c0071dc
/model.22/m.0/cv1/conv/Conv_output_0: 3d17a10b
/model.22/m.0/cv2/conv/Conv_output_0: 3d69d781
/model.23/cv3.1/cv3.1.1/cv3.1.1.0/act/Mul_output_0: 3d00c491
/model.22/m.0/cv1/act/Sigmoid_output_0: 3be29a18
/model.22/m.0/cv2/act/Sigmoid_output_0: 3c030ee5
/model.23/cv3.1/cv3.1.1/cv3.1.1.1/conv/Conv_output_0: 3e81e03c
/model.22/m.0/cv1/act/Mul_output_0: 3c1f422e
/model.22/m.0/cv2/act/Mul_output_0: 3d463f5a
/model.23/cv3.1/cv3.1.1/cv3.1.1.1/act/Sigmoid_output_0: 3c010a14
/model.22/m.0/m/m.0/cv1/conv/Conv_output_0: 3d749e3c
/model.23/cv3.1/cv3.1.1/cv3.1.1.1/act/Mul_output_0: 3e103f48
/model.22/m.0/m/m.0/cv1/act/Sigmoid_output_0: 3c00aa1f
/model.23/cv3.1/cv3.1.2/Conv_output_0: 3e736229
/model.22/m.0/m/m.0/cv1/act/Mul_output_0: 3c9a6b15
/model.23/Reshape_4_output_0: 3e736229
/model.22/m.0/m/m.0/cv2/conv/Conv_output_0: 3d86e8b0
/model.22/m.0/m/m.0/cv2/act/Sigmoid_output_0: 3c00ec31
/model.22/m.0/m/m.0/cv2/act/Mul_output_0: 3cd2f7ed
/model.22/m.0/m/m.0/Add_output_0: 3d50611f
/model.22/m.0/m/m.1/cv1/conv/Conv_output_0: 3d914702
/model.22/m.0/m/m.1/cv1/act/Sigmoid_output_0: 3c00e569
/model.22/m.0/m/m.1/cv1/act/Mul_output_0: 3cb2c089
/model.22/m.0/m/m.1/cv2/conv/Conv_output_0: 3e06036b
/model.22/m.0/m/m.1/cv2/act/Sigmoid_output_0: 3c0315a5
/model.22/m.0/m/m.1/cv2/act/Mul_output_0: 3d67cb47
/model.22/m.0/m/m.1/Add_output_0: 3df0b1dd
/model.22/m.0/Concat_output_0: 3d900041
/model.22/m.0/cv3/conv/Conv_output_0: 3de4dc9e
/model.22/m.0/cv3/act/Sigmoid_output_0: 3c020779
/model.22/m.0/cv3/act/Mul_output_0: 3d12868c
/model.22/Concat_output_0: 3d12868c
/model.22/cv2/conv/Conv_output_0: 3db6dbc5
/model.22/cv2/act/Sigmoid_output_0: 3c0203f9
/model.22/cv2/act/Mul_output_0: 3ce9adad
/model.23/cv2.2/cv2.2.0/conv/Conv_output_0: 3dc9062b
/model.23/cv3.2/cv3.2.0/cv3.2.0.0/conv/Conv_output_0: 3d9f80ae
/model.23/cv2.2/cv2.2.0/act/Sigmoid_output_0: 3c051d78
/model.23/cv3.2/cv3.2.0/cv3.2.0.0/act/Sigmoid_output_0: 3c010a14
/model.23/cv2.2/cv2.2.0/act/Mul_output_0: 3d46ab10
/model.23/cv3.2/cv3.2.0/cv3.2.0.0/act/Mul_output_0: 3d471727
/model.23/cv2.2/cv2.2.1/conv/Conv_output_0: 3ea5805d
/model.23/cv3.2/cv3.2.0/cv3.2.0.1/conv/Conv_output_0: 3de8c39a
/model.23/cv2.2/cv2.2.1/act/Sigmoid_output_0: 3c010a14
/model.23/cv3.2/cv3.2.0/cv3.2.0.1/act/Sigmoid_output_0: 3c019655
/model.23/cv2.2/cv2.2.1/act/Mul_output_0: 3e242046
/model.23/cv3.2/cv3.2.0/cv3.2.0.1/act/Mul_output_0: 3d11d11d
/model.23/cv2.2/cv2.2.2/Conv_output_0: 3dd928fa
/model.23/cv3.2/cv3.2.1/cv3.2.1.0/conv/Conv_output_0: 3d9e2fc3
/model.23/Reshape_2_output_0: 3dd928fa
/model.23/cv3.2/cv3.2.1/cv3.2.1.0/act/Sigmoid_output_0: 3c01b361
/model.23/Concat_output_0: 3e09fc7e
/model.23/cv3.2/cv3.2.1/cv3.2.1.0/act/Mul_output_0: 3d0b4678
/model.23/cv3.2/cv3.2.1/cv3.2.1.1/conv/Conv_output_0: 3e94e154
/model.23/dfl/Reshape_output_0: 3e09fc7e
/model.23/cv3.2/cv3.2.1/cv3.2.1.1/act/Sigmoid_output_0: 3c010a14
/model.23/dfl/Transpose_output_0: 3e09fc7e
/model.23/cv3.2/cv3.2.1/cv3.2.1.1/act/Mul_output_0: 3e12afc3
/model.23/dfl/Softmax_output: 3bb5975c
/model.23/dfl/Softmax_output_0: 3bb5975c
/model.23/cv3.2/cv3.2.2/Conv_output_0: 3e5dd2ce
/model.23/dfl/conv/Conv_output_0: 3de7344f
/model.23/Reshape_5_output_0: 3e5dd2ce
/model.23/dfl/Reshape_1_output_0: 3de7344f
/model.23/Concat_1_output_0: 3e5b9a95
/model.23/Slice_1_output_0: 3de7344f
/model.23/Constant_15_output_0_output: 3e810a14
ONNXTRT_Broadcast_109_output: 3e810a14
/model.23/Sub_output_0: 3f1feda5
/model.23/Sub_1_output_0: 3e5ebd42
/model.23/Constant_14_output_0_output: 3c810a14
/model.23/Sigmoid_output_0: 3ae0853b
/model.23/Add_1_output_0: 3f21f082
output0: 40a09c30
/model.23/Add_2_output_0: 3fa20563
/model.23/Slice_output_0: 3df8fb78
/model.23/Div_1_output_0: 3f220563
/model.23/Concat_2_output_0: 3f209c30
/model.23/Constant_13_output_0_output: 3f204a85
ONNXTRT_Broadcast_107_output: 3c810a14
/model.23/Constant_12_output_0_output: 3f204a85
/model.23/Mul_2_output_0: 40a09c30
